TRT-8201-EntropyCalibration2
input_1:0: 3c010a14
mobilenet_1.00_224/conv1/Conv2D__6:0: 3c010a14
mobilenet_1.00_224/conv1_bn/StatefulPartitionedCall/StatefulPartitionedCall/FusedBatchNormV3:0: 3d130934
mobilenet_1.00_224/conv1_relu/Relu6:0: 3d18eddc
mobilenet_1.00_224/conv_dw_1_bn/StatefulPartitionedCall/StatefulPartitionedCall/FusedBatchNormV3:0: 3d2d8e65
mobilenet_1.00_224/conv_dw_1_relu/Relu6:0: 3d2e78f2
mobilenet_1.00_224/conv_pw_1_bn/StatefulPartitionedCall/StatefulPartitionedCall/FusedBatchNormV3:0: 3d5d30b4
mobilenet_1.00_224/conv_pw_1_relu/Relu6:0: 3d418f1e
mobilenet_1.00_224/conv_pad_2/Pad:0: 3d418f1e
mobilenet_1.00_224/conv_dw_2_bn/StatefulPartitionedCall/StatefulPartitionedCall/FusedBatchNormV3:0: 3d3d236a
mobilenet_1.00_224/conv_dw_2_relu/Relu6:0: 3d3d060c
mobilenet_1.00_224/conv_pw_2_bn/StatefulPartitionedCall/StatefulPartitionedCall/FusedBatchNormV3:0: 3d9b53b0
mobilenet_1.00_224/conv_pw_2_relu/Relu6:0: 3d418f1e
mobilenet_1.00_224/conv_dw_3_bn/StatefulPartitionedCall/StatefulPartitionedCall/FusedBatchNormV3:0: 3dfb3976
mobilenet_1.00_224/conv_dw_3_relu/Relu6:0: 3d418f1e
mobilenet_1.00_224/conv_pw_3_bn/StatefulPartitionedCall/StatefulPartitionedCall/FusedBatchNormV3:0: 3e0245f6
mobilenet_1.00_224/conv_pw_3_relu/Relu6:0: 3d418f1e
mobilenet_1.00_224/conv_pad_4/Pad:0: 3d418f1e
mobilenet_1.00_224/conv_dw_4_bn/StatefulPartitionedCall/StatefulPartitionedCall/FusedBatchNormV3:0: 3d958066
mobilenet_1.00_224/conv_dw_4_relu/Relu6:0: 3d3fc387
mobilenet_1.00_224/conv_pw_4_bn/StatefulPartitionedCall/StatefulPartitionedCall/FusedBatchNormV3:0: 3dc23e1d
mobilenet_1.00_224/conv_pw_4_relu/Relu6:0: 3d418f1e
mobilenet_1.00_224/conv_dw_5_bn/StatefulPartitionedCall/StatefulPartitionedCall/FusedBatchNormV3:0: 3ddcb36e
mobilenet_1.00_224/conv_dw_5_relu/Relu6:0: 3d418f1e
mobilenet_1.00_224/conv_pw_5_bn/StatefulPartitionedCall/StatefulPartitionedCall/FusedBatchNormV3:0: 3dc2c81e
mobilenet_1.00_224/conv_pw_5_relu/Relu6:0: 3d418f1e
mobilenet_1.00_224/conv_pad_6/Pad:0: 3d418f1e
mobilenet_1.00_224/conv_dw_6_bn/StatefulPartitionedCall/StatefulPartitionedCall/FusedBatchNormV3:0: 3d8a70f8
mobilenet_1.00_224/conv_dw_6_relu/Relu6:0: 3d2ac993
mobilenet_1.00_224/conv_pw_6_bn/StatefulPartitionedCall/StatefulPartitionedCall/FusedBatchNormV3:0: 3d816010
mobilenet_1.00_224/conv_pw_6_relu/Relu6:0: 3d418f1e
mobilenet_1.00_224/conv_dw_7_bn/StatefulPartitionedCall/StatefulPartitionedCall/FusedBatchNormV3:0: 3dd5e3ae
mobilenet_1.00_224/conv_dw_7_relu/Relu6:0: 3d418f1e
mobilenet_1.00_224/conv_pw_7_bn/StatefulPartitionedCall/StatefulPartitionedCall/FusedBatchNormV3:0: 3d841b10
mobilenet_1.00_224/conv_pw_7_relu/Relu6:0: 3d418f1e
mobilenet_1.00_224/conv_dw_8_bn/StatefulPartitionedCall/StatefulPartitionedCall/FusedBatchNormV3:0: 3d9ccf92
mobilenet_1.00_224/conv_dw_8_relu/Relu6:0: 3d418f1e
mobilenet_1.00_224/conv_pw_8_bn/StatefulPartitionedCall/StatefulPartitionedCall/FusedBatchNormV3:0: 3d66674a
mobilenet_1.00_224/conv_pw_8_relu/Relu6:0: 3d418f1e
mobilenet_1.00_224/conv_dw_9_bn/StatefulPartitionedCall/StatefulPartitionedCall/FusedBatchNormV3:0: 3d653f83
mobilenet_1.00_224/conv_dw_9_relu/Relu6:0: 3d3dc78f
mobilenet_1.00_224/conv_pw_9_bn/StatefulPartitionedCall/StatefulPartitionedCall/FusedBatchNormV3:0: 3db0f300
mobilenet_1.00_224/conv_pw_9_relu/Relu6:0: 3d418f1e
mobilenet_1.00_224/conv_dw_10_bn/StatefulPartitionedCall/StatefulPartitionedCall/FusedBatchNormV3:0: 3d8aaa04
mobilenet_1.00_224/conv_dw_10_relu/Relu6:0: 3d418f1e
mobilenet_1.00_224/conv_pw_10_bn/StatefulPartitionedCall/StatefulPartitionedCall/FusedBatchNormV3:0: 3d9d1da7
mobilenet_1.00_224/conv_pw_10_relu/Relu6:0: 3d418f1e
mobilenet_1.00_224/conv_dw_11_bn/StatefulPartitionedCall/StatefulPartitionedCall/FusedBatchNormV3:0: 3da17f54
mobilenet_1.00_224/conv_dw_11_relu/Relu6:0: 3d418f1e
mobilenet_1.00_224/conv_pw_11_bn/StatefulPartitionedCall/StatefulPartitionedCall/FusedBatchNormV3:0: 3d98f02d
mobilenet_1.00_224/conv_pw_11_relu/Relu6:0: 3d418f1e
mobilenet_1.00_224/conv_pad_12/Pad:0: 3d418f1e
mobilenet_1.00_224/conv_dw_12_bn/StatefulPartitionedCall/StatefulPartitionedCall/FusedBatchNormV3:0: 3d3335f6
mobilenet_1.00_224/conv_dw_12_relu/Relu6:0: 3d333265
mobilenet_1.00_224/conv_pw_12_bn/StatefulPartitionedCall/StatefulPartitionedCall/FusedBatchNormV3:0: 3db8338d
mobilenet_1.00_224/conv_pw_12_relu/Relu6:0: 3d418f1e
mobilenet_1.00_224/conv_dw_13_bn/StatefulPartitionedCall/StatefulPartitionedCall/FusedBatchNormV3:0: 3d82c1d6
mobilenet_1.00_224/conv_dw_13_relu/Relu6:0: 3d179b36
mobilenet_1.00_224/conv_pw_13_bn/StatefulPartitionedCall/StatefulPartitionedCall/FusedBatchNormV3:0: 3e5db772
mobilenet_1.00_224/conv_pw_13_relu/Relu6:0: 3d418f1e
mobilenet_1.00_224/global_average_pooling2d/Mean:0: 3d072ca7
mobilenet_1.00_224/conv_preds/BiasAdd:0: 3dc285d0
mobilenet_1.00_224/reshape_2/Reshape:0: 3dc285d0
Identity:0: 3b9f9d96
